unsigned char models_model_tflite[] = {
  0x1c, 0x00, 0x00, 0x00, 0x54, 0x46, 0x4c, 0x33, 0x14, 0x00, 0x20, 0x00,
  0x04, 0x00, 0x08, 0x00, 0x0c, 0x00, 0x10, 0x00, 0x14, 0x00, 0x00, 0x00,
  0x18, 0x00, 0x1c, 0x00, 0x14, 0x00, 0x00, 0x00, 0x03, 0x00, 0x00, 0x00,
  0x18, 0x00, 0x00, 0x00, 0x20, 0x00, 0x00, 0x00, 0x3c, 0x01, 0x00, 0x00,
  0x20, 0x00, 0x00, 0x00, 0xe4, 0x00, 0x00, 0x00, 0x50, 0x00, 0x00, 0x00,
  0x02, 0x00, 0x00, 0x00, 0xbc, 0x03, 0x00, 0x00, 0xe8, 0x01, 0x00, 0x00,
  0x01, 0x00, 0x00, 0x00, 0x40, 0x01, 0x00, 0x00, 0x0d, 0x00, 0x00, 0x00,
  0x8c, 0x09, 0x00, 0x00, 0x88, 0x09, 0x00, 0x00, 0xc0, 0x08, 0x00, 0x00,
  0x50, 0x08, 0x00, 0x00, 0xe0, 0x07, 0x00, 0x00, 0x18, 0x06, 0x00, 0x00,
  0x50, 0x04, 0x00, 0x00, 0xe8, 0x03, 0x00, 0x00, 0x6c, 0x09, 0x00, 0x00,
  0x68, 0x09, 0x00, 0x00, 0x64, 0x09, 0x00, 0x00, 0x60, 0x09, 0x00, 0x00,
  0xc8, 0x00, 0x00, 0x00, 0x01, 0x00, 0x00, 0x00, 0x10, 0x00, 0x00, 0x00,
  0x0c, 0x00, 0x14, 0x00, 0x10, 0x00, 0x0c, 0x00, 0x08, 0x00, 0x04, 0x00,
  0x0c, 0x00, 0x00, 0x00, 0x10, 0x00, 0x00, 0x00, 0x18, 0x00, 0x00, 0x00,
  0x28, 0x00, 0x00, 0x00, 0x2c, 0x00, 0x00, 0x00, 0x05, 0x00, 0x00, 0x00,
  0x73, 0x65, 0x72, 0x76, 0x65, 0x00, 0x00, 0x00, 0x0f, 0x00, 0x00, 0x00,
  0x73, 0x65, 0x72, 0x76, 0x69, 0x6e, 0x67, 0x5f, 0x64, 0x65, 0x66, 0x61,
  0x75, 0x6c, 0x74, 0x00, 0x01, 0x00, 0x00, 0x00, 0x14, 0x00, 0x00, 0x00,
  0x01, 0x00, 0x00, 0x00, 0x24, 0x00, 0x00, 0x00, 0x08, 0x00, 0x0c, 0x00,
  0x08, 0x00, 0x04, 0x00, 0x08, 0x00, 0x00, 0x00, 0x0a, 0x00, 0x00, 0x00,
  0x04, 0x00, 0x00, 0x00, 0x07, 0x00, 0x00, 0x00, 0x64, 0x65, 0x6e, 0x73,
  0x65, 0x5f, 0x32, 0x00, 0xea, 0xf7, 0xff, 0xff, 0x04, 0x00, 0x00, 0x00,
  0x0b, 0x00, 0x00, 0x00, 0x64, 0x65, 0x6e, 0x73, 0x65, 0x5f, 0x69, 0x6e,
  0x70, 0x75, 0x74, 0x00, 0x01, 0x00, 0x00, 0x00, 0x0c, 0x00, 0x00, 0x00,
  0x08, 0x00, 0x0c, 0x00, 0x04, 0x00, 0x08, 0x00, 0x08, 0x00, 0x00, 0x00,
  0x08, 0x00, 0x00, 0x00, 0x0c, 0x00, 0x00, 0x00, 0x13, 0x00, 0x00, 0x00,
  0x6d, 0x69, 0x6e, 0x5f, 0x72, 0x75, 0x6e, 0x74, 0x69, 0x6d, 0x65, 0x5f,
  0x76, 0x65, 0x72, 0x73, 0x69, 0x6f, 0x6e, 0x00, 0x36, 0xf8, 0xff, 0xff,
  0x04, 0x00, 0x00, 0x00, 0x10, 0x00, 0x00, 0x00, 0x31, 0x2e, 0x31, 0x34,
  0x2e, 0x30, 0x00, 0x00, 0x00, 0x00, 0x00, 0x00, 0x00, 0x00, 0x00, 0x00,
  0x0f, 0x00, 0x00, 0x00, 0x4d, 0x4c, 0x49, 0x52, 0x20, 0x43, 0x6f, 0x6e,
  0x76, 0x65, 0x72, 0x74, 0x65, 0x64, 0x2e, 0x00, 0x00, 0x00, 0x0e, 0x00,
  0x18, 0x00, 0x04, 0x00, 0x08, 0x00, 0x0c, 0x00, 0x10, 0x00, 0x14, 0x00,
  0x0e, 0x00, 0x00, 0x00, 0x14, 0x00, 0x00, 0x00, 0x40, 0x00, 0x00, 0x00,
  0x44, 0x00, 0x00, 0x00, 0x48, 0x00, 0x00, 0x00, 0x58, 0x00, 0x00, 0x00,
  0x0b, 0x00, 0x00, 0x00, 0xdc, 0x07, 0x00, 0x00, 0x90, 0x07, 0x00, 0x00,
  0x2c, 0x07, 0x00, 0x00, 0xcc, 0x06, 0x00, 0x00, 0x54, 0x06, 0x00, 0x00,
  0x8c, 0x04, 0x00, 0x00, 0xc4, 0x02, 0x00, 0x00, 0x48, 0x02, 0x00, 0x00,
  0x8c, 0x01, 0x00, 0x00, 0xf4, 0x00, 0x00, 0x00, 0x6c, 0x00, 0x00, 0x00,
  0x01, 0x00, 0x00, 0x00, 0x00, 0x00, 0x00, 0x00, 0x01, 0x00, 0x00, 0x00,
  0x0a, 0x00, 0x00, 0x00, 0x04, 0x00, 0x00, 0x00, 0xcc, 0x01, 0x00, 0x00,
  0x34, 0x01, 0x00, 0x00, 0xa0, 0x00, 0x00, 0x00, 0x18, 0x00, 0x00, 0x00,
  0x04, 0x00, 0x00, 0x00, 0x6d, 0x61, 0x69, 0x6e, 0x00, 0x00, 0x0a, 0x00,
  0x10, 0x00, 0x04, 0x00, 0x08, 0x00, 0x0c, 0x00, 0x0a, 0x00, 0x00, 0x00,
  0x01, 0x00, 0x00, 0x00, 0x10, 0x00, 0x00, 0x00, 0x04, 0x00, 0x00, 0x00,
  0x01, 0x00, 0x00, 0x00, 0x0a, 0x00, 0x00, 0x00, 0x01, 0x00, 0x00, 0x00,
  0x09, 0x00, 0x00, 0x00, 0x3c, 0xfe, 0xff, 0xff, 0x0e, 0x00, 0x00, 0x00,
  0x00, 0x00, 0x00, 0x0e, 0x01, 0x00, 0x00, 0x00, 0xcc, 0xf8, 0xff, 0xff,
  0x14, 0x00, 0x00, 0x00, 0x0b, 0x00, 0x00, 0x00, 0x18, 0x00, 0x00, 0x00,
  0x40, 0x00, 0x00, 0x00, 0x30, 0x00, 0x00, 0x00, 0x02, 0x00, 0x00, 0x00,
  0x01, 0x00, 0x00, 0x00, 0x01, 0x00, 0x00, 0x00, 0x19, 0x00, 0x00, 0x00,
  0x53, 0x74, 0x61, 0x74, 0x65, 0x66, 0x75, 0x6c, 0x50, 0x61, 0x72, 0x74,
  0x69, 0x74, 0x69, 0x6f, 0x6e, 0x65, 0x64, 0x43, 0x61, 0x6c, 0x6c, 0x3a,
  0x30, 0x00, 0x00, 0x00, 0x02, 0x00, 0x00, 0x00, 0xff, 0xff, 0xff, 0xff,
  0x01, 0x00, 0x00, 0x00, 0xb0, 0xf8, 0xff, 0xff, 0x7e, 0xff, 0xff, 0xff,
  0x00, 0x00, 0x00, 0x08, 0x18, 0x00, 0x00, 0x00, 0x0c, 0x00, 0x00, 0x00,
  0x04, 0x00, 0x00, 0x00, 0xc8, 0xf8, 0xff, 0xff, 0x01, 0x00, 0x00, 0x00,
  0x09, 0x00, 0x00, 0x00, 0x03, 0x00, 0x00, 0x00, 0x08, 0x00, 0x00, 0x00,
  0x06, 0x00, 0x00, 0x00, 0x01, 0x00, 0x00, 0x00, 0x50, 0xf9, 0xff, 0xff,
  0x14, 0x00, 0x00, 0x00, 0x0a, 0x00, 0x00, 0x00, 0x18, 0x00, 0x00, 0x00,
  0x3c, 0x00, 0x00, 0x00, 0x2c, 0x00, 0x00, 0x00, 0x02, 0x00, 0x00, 0x00,
  0x01, 0x00, 0x00, 0x00, 0x01, 0x00, 0x00, 0x00, 0x14, 0x00, 0x00, 0x00,
  0x74, 0x66, 0x6c, 0x2e, 0x66, 0x75, 0x6c, 0x6c, 0x79, 0x5f, 0x63, 0x6f,
  0x6e, 0x6e, 0x65, 0x63, 0x74, 0x65, 0x64, 0x32, 0x00, 0x00, 0x00, 0x00,
  0x02, 0x00, 0x00, 0x00, 0xff, 0xff, 0xff, 0xff, 0x01, 0x00, 0x00, 0x00,
  0x00, 0xfa, 0xff, 0xff, 0x00, 0x00, 0x0e, 0x00, 0x14, 0x00, 0x00, 0x00,
  0x08, 0x00, 0x0c, 0x00, 0x07, 0x00, 0x10, 0x00, 0x0e, 0x00, 0x00, 0x00,
  0x00, 0x00, 0x00, 0x08, 0x1c, 0x00, 0x00, 0x00, 0x10, 0x00, 0x00, 0x00,
  0x04, 0x00, 0x00, 0x00, 0x6a, 0xff, 0xff, 0xff, 0x00, 0x00, 0x00, 0x01,
  0x01, 0x00, 0x00, 0x00, 0x08, 0x00, 0x00, 0x00, 0x03, 0x00, 0x00, 0x00,
  0x07, 0x00, 0x00, 0x00, 0x05, 0x00, 0x00, 0x00, 0x02, 0x00, 0x00, 0x00,
  0xe4, 0xf9, 0xff, 0xff, 0x14, 0x00, 0x00, 0x00, 0x09, 0x00, 0x00, 0x00,
  0x18, 0x00, 0x00, 0x00, 0x3c, 0x00, 0x00, 0x00, 0x2c, 0x00, 0x00, 0x00,
  0x02, 0x00, 0x00, 0x00, 0x01, 0x00, 0x00, 0x00, 0x08, 0x00, 0x00, 0x00,
  0x14, 0x00, 0x00, 0x00, 0x74, 0x66, 0x6c, 0x2e, 0x66, 0x75, 0x6c, 0x6c,
  0x79, 0x5f, 0x63, 0x6f, 0x6e, 0x6e, 0x65, 0x63, 0x74, 0x65, 0x64, 0x31,
  0x00, 0x00, 0x00, 0x00, 0x02, 0x00, 0x00, 0x00, 0xff, 0xff, 0xff, 0xff,
  0x08, 0x00, 0x00, 0x00, 0x94, 0xfa, 0xff, 0xff, 0x00, 0x00, 0x0e, 0x00,
  0x16, 0x00, 0x00, 0x00, 0x08, 0x00, 0x0c, 0x00, 0x07, 0x00, 0x10, 0x00,
  0x0e, 0x00, 0x00, 0x00, 0x00, 0x00, 0x00, 0x08, 0x24, 0x00, 0x00, 0x00,
  0x18, 0x00, 0x00, 0x00, 0x0c, 0x00, 0x00, 0x00, 0x00, 0x00, 0x06, 0x00,
  0x08, 0x00, 0x07, 0x00, 0x06, 0x00, 0x00, 0x00, 0x00, 0x00, 0x00, 0x01,
  0x01, 0x00, 0x00, 0x00, 0x07, 0x00, 0x00, 0x00, 0x03, 0x00, 0x00, 0x00,
  0x00, 0x00, 0x00, 0x00, 0x04, 0x00, 0x00, 0x00, 0x03, 0x00, 0x00, 0x00,
  0x0c, 0x00, 0x10, 0x00, 0x0b, 0x00, 0x00, 0x00, 0x0c, 0x00, 0x04, 0x00,
  0x0c, 0x00, 0x00, 0x00, 0x09, 0x00, 0x00, 0x00, 0x00, 0x00, 0x00, 0x09,
  0x01, 0x00, 0x00, 0x00, 0x9c, 0xfa, 0xff, 0xff, 0x14, 0x00, 0x00, 0x00,
  0x08, 0x00, 0x00, 0x00, 0x18, 0x00, 0x00, 0x00, 0x38, 0x00, 0x00, 0x00,
  0x28, 0x00, 0x00, 0x00, 0x02, 0x00, 0x00, 0x00, 0x01, 0x00, 0x00, 0x00,
  0x0c, 0x00, 0x00, 0x00, 0x13, 0x00, 0x00, 0x00, 0x74, 0x66, 0x6c, 0x2e,
  0x66, 0x75, 0x6c, 0x6c, 0x79, 0x5f, 0x63, 0x6f, 0x6e, 0x6e, 0x65, 0x63,
  0x74, 0x65, 0x64, 0x00, 0x02, 0x00, 0x00, 0x00, 0xff, 0xff, 0xff, 0xff,
  0x0c, 0x00, 0x00, 0x00, 0x78, 0xfa, 0xff, 0xff, 0x42, 0xfb, 0xff, 0xff,
  0x04, 0x00, 0x00, 0x00, 0x20, 0x00, 0x00, 0x00, 0xd3, 0x19, 0x7a, 0x3e,
  0x29, 0xcc, 0x01, 0x3f, 0x98, 0x2f, 0xb1, 0x3d, 0x1b, 0x5d, 0x75, 0xbe,
  0x12, 0x9c, 0x84, 0xbe, 0x42, 0x1d, 0x03, 0x3f, 0x23, 0x5e, 0xa1, 0x3e,
  0x51, 0x61, 0x34, 0x3f, 0x56, 0xfb, 0xff, 0xff, 0x10, 0x00, 0x00, 0x00,
  0x07, 0x00, 0x00, 0x00, 0x14, 0x00, 0x00, 0x00, 0x24, 0x00, 0x00, 0x00,
  0x02, 0x00, 0x00, 0x00, 0x01, 0x00, 0x00, 0x00, 0x08, 0x00, 0x00, 0x00,
  0x0d, 0x00, 0x00, 0x00, 0x73, 0x74, 0x64, 0x2e, 0x63, 0x6f, 0x6e, 0x73,
  0x74, 0x61, 0x6e, 0x74, 0x32, 0x00, 0x00, 0x00, 0xdc, 0xfa, 0xff, 0xff,
  0xa6, 0xfb, 0xff, 0xff, 0x04, 0x00, 0x00, 0x00, 0x80, 0x01, 0x00, 0x00,
  0x01, 0xec, 0xf5, 0xbe, 0x9a, 0xde, 0xa3, 0x3d, 0x5d, 0x8c, 0xac, 0xbc,
  0x0a, 0x13, 0xa9, 0xbd, 0xaa, 0x83, 0x5e, 0xbd, 0x5d, 0x60, 0x0f, 0xbe,
  0x67, 0xa9, 0x82, 0x3e, 0xc5, 0x90, 0xb8, 0x3d, 0x97, 0xc2, 0x26, 0xbe,
  0x6e, 0x90, 0xca, 0xbe, 0xba, 0xcd, 0x95, 0x3e, 0xe8, 0x30, 0xea, 0x3e,
  0xa5, 0xec, 0x9c, 0x3e, 0x2f, 0x06, 0xdb, 0x3e, 0xc6, 0x52, 0xb2, 0xbe,
  0x1a, 0x72, 0x40, 0xbe, 0x52, 0x1d, 0x18, 0x3e, 0x25, 0x8d, 0xdb, 0xbd,
  0x11, 0xf8, 0x11, 0xbf, 0xb2, 0xbc, 0x1a, 0xbd, 0x0f, 0x15, 0x8b, 0x3e,
  0x05, 0xcc, 0xa2, 0x3e, 0x25, 0x42, 0xdc, 0xbe, 0x94, 0x3d, 0xee, 0xbe,
  0xc4, 0xcf, 0x02, 0xbf, 0x91, 0x12, 0xe2, 0x3d, 0x8b, 0x86, 0x9b, 0x3d,
  0x81, 0x82, 0xa4, 0x3e, 0xbd, 0xb5, 0xa6, 0xbf, 0x6e, 0xb0, 0x57, 0x3e,
  0x17, 0x03, 0x1e, 0x3e, 0x97, 0x35, 0x08, 0x3e, 0xed, 0x97, 0xf2, 0xbe,
  0x12, 0x28, 0x72, 0x3e, 0xcc, 0xf0, 0x8f, 0xbe, 0xf4, 0x95, 0xc3, 0x3e,
  0xf7, 0xf0, 0xef, 0x3e, 0xeb, 0xe7, 0x7d, 0x3d, 0xa8, 0xf6, 0xa4, 0xbe,
  0xe5, 0x3d, 0xbc, 0xbe, 0x78, 0xc5, 0x71, 0x3e, 0xb3, 0xf2, 0xdf, 0x3e,
  0xad, 0x46, 0x9f, 0x3e, 0x02, 0x58, 0xec, 0x3c, 0x05, 0x52, 0xaa, 0x3d,
  0xd6, 0x5b, 0x2b, 0xbf, 0xb8, 0xe5, 0x5b, 0xbe, 0xc0, 0x2d, 0xad, 0x3c,
  0x25, 0x92, 0x9d, 0xbe, 0xdf, 0x7d, 0xea, 0xbd, 0xf0, 0x23, 0x4b, 0x3d,
  0xb1, 0xdb, 0x3b, 0xbe, 0x04, 0x12, 0x51, 0xbe, 0xfc, 0xb1, 0xa9, 0x3e,
  0x5a, 0xa1, 0x90, 0x3e, 0xfd, 0x91, 0x99, 0x3d, 0xb9, 0x49, 0xf9, 0xbe,
  0x61, 0x3c, 0x85, 0xbe, 0xb8, 0xa6, 0xf9, 0xbe, 0xe2, 0xb2, 0x0a, 0x3f,
  0x0c, 0x22, 0xb8, 0x3e, 0x22, 0xfa, 0x18, 0xbe, 0x1d, 0xe0, 0x83, 0xbe,
  0x20, 0xe9, 0xfa, 0xbc, 0x29, 0x6c, 0xc7, 0xbe, 0x60, 0x47, 0x12, 0x3d,
  0xde, 0x00, 0xad, 0xbe, 0x0b, 0x06, 0xc5, 0xbe, 0x5c, 0x2c, 0xce, 0xbe,
  0xd8, 0x53, 0xa3, 0xbd, 0x38, 0x90, 0x39, 0x3e, 0x54, 0xbd, 0xf1, 0xbd,
  0x59, 0x04, 0xfc, 0x3e, 0x02, 0x80, 0xaf, 0x3d, 0xe4, 0x03, 0x0a, 0x3f,
  0xb6, 0xb0, 0xbd, 0xbe, 0x86, 0x7f, 0x69, 0xbf, 0xf4, 0xa1, 0xc5, 0x3e,
  0xdf, 0xa1, 0xcf, 0x3e, 0x76, 0x02, 0x7d, 0xbe, 0x54, 0x2a, 0xe4, 0xbe,
  0xb5, 0x8d, 0x80, 0x3a, 0x76, 0x53, 0x80, 0xbd, 0x6a, 0x71, 0x00, 0x3f,
  0x8c, 0x43, 0xb9, 0xbe, 0xc2, 0x82, 0x6a, 0x3d, 0x0f, 0x0e, 0xa0, 0xbe,
  0x6c, 0x28, 0x0a, 0xbd, 0x6d, 0x3d, 0xec, 0xbe, 0x7b, 0x5d, 0xfd, 0x3e,
  0x27, 0xf8, 0xb7, 0xbe, 0x84, 0xa5, 0xe4, 0x3e, 0x7b, 0xa1, 0x59, 0xbe,
  0xbf, 0xa2, 0x2f, 0xbe, 0x3c, 0x22, 0x83, 0xbe, 0x50, 0xc6, 0x62, 0xbe,
  0x1a, 0xfd, 0xff, 0xff, 0x10, 0x00, 0x00, 0x00, 0x06, 0x00, 0x00, 0x00,
  0x14, 0x00, 0x00, 0x00, 0x24, 0x00, 0x00, 0x00, 0x02, 0x00, 0x00, 0x00,
  0x08, 0x00, 0x00, 0x00, 0x0c, 0x00, 0x00, 0x00, 0x0d, 0x00, 0x00, 0x00,
  0x73, 0x74, 0x64, 0x2e, 0x63, 0x6f, 0x6e, 0x73, 0x74, 0x61, 0x6e, 0x74,
  0x31, 0x00, 0x00, 0x00, 0xa0, 0xfc, 0xff, 0xff, 0x6a, 0xfd, 0xff, 0xff,
  0x04, 0x00, 0x00, 0x00, 0x80, 0x01, 0x00, 0x00, 0x86, 0x3f, 0xae, 0xbd,
  0x54, 0xdd, 0xf2, 0x3d, 0x9b, 0xcc, 0x03, 0x3e, 0x2b, 0x36, 0xa2, 0x3d,
  0x7b, 0x6d, 0x24, 0x3e, 0xa4, 0x1c, 0x60, 0x3e, 0x99, 0xa7, 0x81, 0xbf,
  0x7d, 0x90, 0xcb, 0x3e, 0x51, 0x95, 0xd8, 0xbd, 0x1e, 0xe9, 0xc3, 0x3e,
  0x13, 0x5b, 0xb4, 0x3c, 0x2b, 0x98, 0x6e, 0xbd, 0xcb, 0x2c, 0x42, 0x3e,
  0x49, 0x7a, 0xe2, 0xbd, 0x84, 0x70, 0x7a, 0x3d, 0x56, 0x85, 0x82, 0x3e,
  0x36, 0xd6, 0x02, 0x3f, 0xb7, 0x4b, 0x8d, 0xbe, 0x9d, 0x3e, 0x38, 0xbe,
  0x36, 0x21, 0xc7, 0x3e, 0x80, 0x4a, 0xd9, 0xbe, 0xbc, 0x9d, 0x06, 0x3e,
  0x70, 0x58, 0x07, 0xbf, 0x2e, 0xbe, 0xcf, 0x3d, 0x52, 0x0a, 0x36, 0x3e,
  0x95, 0x33, 0x1b, 0x3d, 0x49, 0x0d, 0xf0, 0x3e, 0x85, 0x8d, 0x03, 0x3f,
  0xf5, 0xe3, 0x2c, 0xbe, 0xfc, 0x79, 0xd3, 0x3e, 0x08, 0x40, 0x9c, 0xbd,
  0xd7, 0x80, 0x01, 0x3f, 0x85, 0x22, 0x34, 0x3e, 0x87, 0x97, 0xf1, 0x3c,
  0xe5, 0x1c, 0x0f, 0xbe, 0xe1, 0x4b, 0x82, 0x3d, 0xe6, 0x50, 0xb1, 0xbe,
  0x5f, 0x0e, 0x85, 0x3e, 0x35, 0x9a, 0x99, 0xbe, 0x01, 0xc0, 0x4a, 0x3f,
  0x7c, 0x01, 0xcc, 0xbe, 0xee, 0x31, 0x9d, 0xbe, 0x61, 0x01, 0xab, 0x3c,
  0x0b, 0x3e, 0x49, 0x3e, 0xe5, 0x64, 0xab, 0xbe, 0xc0, 0x98, 0x98, 0xbe,
  0xc1, 0x52, 0x07, 0xbf, 0x13, 0x15, 0x7c, 0x3e, 0x04, 0xcd, 0x72, 0x3f,
  0x23, 0x3f, 0xc2, 0x3d, 0x3c, 0x91, 0x31, 0xbe, 0xb2, 0x8f, 0xed, 0x3e,
  0x34, 0x2f, 0xf9, 0x3e, 0x71, 0xe4, 0x10, 0xbe, 0xb6, 0xae, 0x9a, 0x3e,
  0x24, 0xb7, 0x10, 0x3f, 0x3c, 0x9b, 0x4f, 0xbe, 0x4f, 0x89, 0x83, 0x3e,
  0xc7, 0x6b, 0x4a, 0x3e, 0x9d, 0x0b, 0x5a, 0x3d, 0x38, 0x4c, 0x96, 0x3e,
  0x18, 0x25, 0xb2, 0x3d, 0x31, 0xa7, 0x08, 0xbd, 0xeb, 0x13, 0x24, 0x3e,
  0xcd, 0xe6, 0x72, 0xbd, 0x97, 0x86, 0xac, 0x3d, 0xe3, 0x6c, 0x97, 0xbd,
  0xc2, 0x24, 0x72, 0x3c, 0xd3, 0x24, 0x8d, 0x3d, 0x53, 0x5b, 0x14, 0xbe,
  0x21, 0x41, 0x41, 0xbd, 0xdb, 0x17, 0x81, 0x3d, 0x1d, 0xd1, 0x28, 0xbf,
  0x8b, 0xbb, 0xa1, 0x3d, 0x6e, 0x6d, 0x4d, 0x3e, 0xf9, 0xba, 0xc7, 0x3d,
  0x19, 0x4e, 0xa2, 0xbe, 0x3a, 0xd1, 0x71, 0xbe, 0x10, 0x83, 0xef, 0xbe,
  0xaa, 0x6d, 0xa2, 0xbe, 0x85, 0x69, 0xce, 0xbc, 0x12, 0xd6, 0xf5, 0x3e,
  0x5c, 0xba, 0x3a, 0xbd, 0x35, 0xe3, 0x7f, 0xbc, 0x82, 0x76, 0x9f, 0xbe,
  0x2c, 0x04, 0x29, 0x3f, 0x39, 0xff, 0x31, 0x3f, 0x74, 0x76, 0xb7, 0x3e,
  0x7c, 0x61, 0x99, 0xbd, 0x9c, 0x63, 0xff, 0xbe, 0x31, 0x34, 0xe2, 0xbe,
  0x80, 0x5e, 0x09, 0x3d, 0x46, 0x9d, 0xf2, 0xbe, 0xc8, 0xe5, 0x94, 0x3d,
  0xa0, 0x64, 0x15, 0xbe, 0x9e, 0xb2, 0xc6, 0x3e, 0xde, 0xfe, 0xff, 0xff,
  0x10, 0x00, 0x00, 0x00, 0x05, 0x00, 0x00, 0x00, 0x14, 0x00, 0x00, 0x00,
  0x24, 0x00, 0x00, 0x00, 0x02, 0x00, 0x00, 0x00, 0x0c, 0x00, 0x00, 0x00,
  0x08, 0x00, 0x00, 0x00, 0x0c, 0x00, 0x00, 0x00, 0x73, 0x74, 0x64, 0x2e,
  0x63, 0x6f, 0x6e, 0x73, 0x74, 0x61, 0x6e, 0x74, 0x00, 0x00, 0x00, 0x00,
  0x64, 0xfe, 0xff, 0xff, 0x2e, 0xff, 0xff, 0xff, 0x04, 0x00, 0x00, 0x00,
  0x30, 0x00, 0x00, 0x00, 0x61, 0xc3, 0x99, 0x3f, 0xc7, 0x06, 0x44, 0xbf,
  0x78, 0xee, 0x2f, 0xbd, 0xbb, 0x61, 0x87, 0x3e, 0x2c, 0x24, 0x5e, 0x3f,
  0x5c, 0xed, 0xf1, 0xbd, 0xb6, 0xd6, 0x59, 0xbf, 0xd2, 0x70, 0x75, 0x3e,
  0xc5, 0x52, 0x82, 0x3f, 0xba, 0xf4, 0xcb, 0x3e, 0xef, 0x86, 0x8d, 0xbf,
  0x00, 0x00, 0x00, 0x00, 0x52, 0xff, 0xff, 0xff, 0x10, 0x00, 0x00, 0x00,
  0x04, 0x00, 0x00, 0x00, 0x10, 0x00, 0x00, 0x00, 0x1c, 0x00, 0x00, 0x00,
  0x01, 0x00, 0x00, 0x00, 0x0c, 0x00, 0x00, 0x00, 0x0a, 0x00, 0x00, 0x00,
  0x64, 0x65, 0x6e, 0x73, 0x65, 0x2f, 0x62, 0x69, 0x61, 0x73, 0x00, 0x00,
  0xd0, 0xfe, 0xff, 0xff, 0x9a, 0xff, 0xff, 0xff, 0x04, 0x00, 0x00, 0x00,
  0x20, 0x00, 0x00, 0x00, 0x84, 0x3f, 0x9a, 0xbf, 0x0c, 0x30, 0xfd, 0xbd,
  0x95, 0xee, 0x20, 0xbf, 0xe4, 0xfe, 0x97, 0x3f, 0x50, 0xe4, 0x3c, 0x3e,
  0x00, 0x00, 0x00, 0x00, 0xac, 0xd4, 0x67, 0xbf, 0xff, 0x86, 0x94, 0xbd,
  0xae, 0xff, 0xff, 0xff, 0x10, 0x00, 0x00, 0x00, 0x03, 0x00, 0x00, 0x00,
  0x10, 0x00, 0x00, 0x00, 0x24, 0x00, 0x00, 0x00, 0x01, 0x00, 0x00, 0x00,
  0x08, 0x00, 0x00, 0x00, 0x0c, 0x00, 0x00, 0x00, 0x64, 0x65, 0x6e, 0x73,
  0x65, 0x5f, 0x31, 0x2f, 0x62, 0x69, 0x61, 0x73, 0x00, 0x00, 0x00, 0x00,
  0x04, 0x00, 0x06, 0x00, 0x04, 0x00, 0x00, 0x00, 0x00, 0x00, 0x06, 0x00,
  0x08, 0x00, 0x04, 0x00, 0x06, 0x00, 0x00, 0x00, 0x04, 0x00, 0x00, 0x00,
  0x04, 0x00, 0x00, 0x00, 0x8a, 0xb8, 0xfc, 0xbf, 0x00, 0x00, 0x0e, 0x00,
  0x14, 0x00, 0x04, 0x00, 0x00, 0x00, 0x08, 0x00, 0x0c, 0x00, 0x10, 0x00,
  0x0e, 0x00, 0x00, 0x00, 0x10, 0x00, 0x00, 0x00, 0x02, 0x00, 0x00, 0x00,
  0x10, 0x00, 0x00, 0x00, 0x20, 0x00, 0x00, 0x00, 0x01, 0x00, 0x00, 0x00,
  0x01, 0x00, 0x00, 0x00, 0x0c, 0x00, 0x00, 0x00, 0x64, 0x65, 0x6e, 0x73,
  0x65, 0x5f, 0x32, 0x2f, 0x62, 0x69, 0x61, 0x73, 0x00, 0x00, 0x00, 0x00,
  0x90, 0xff, 0xff, 0xff, 0x14, 0x00, 0x18, 0x00, 0x04, 0x00, 0x00, 0x00,
  0x08, 0x00, 0x0c, 0x00, 0x10, 0x00, 0x00, 0x00, 0x00, 0x00, 0x14, 0x00,
  0x14, 0x00, 0x00, 0x00, 0x14, 0x00, 0x00, 0x00, 0x01, 0x00, 0x00, 0x00,
  0x18, 0x00, 0x00, 0x00, 0x44, 0x00, 0x00, 0x00, 0x34, 0x00, 0x00, 0x00,
  0x02, 0x00, 0x00, 0x00, 0x01, 0x00, 0x00, 0x00, 0x08, 0x00, 0x00, 0x00,
  0x1d, 0x00, 0x00, 0x00, 0x73, 0x65, 0x72, 0x76, 0x69, 0x6e, 0x67, 0x5f,
  0x64, 0x65, 0x66, 0x61, 0x75, 0x6c, 0x74, 0x5f, 0x64, 0x65, 0x6e, 0x73,
  0x65, 0x5f, 0x69, 0x6e, 0x70, 0x75, 0x74, 0x3a, 0x30, 0x00, 0x00, 0x00,
  0x02, 0x00, 0x00, 0x00, 0xff, 0xff, 0xff, 0xff, 0x08, 0x00, 0x00, 0x00,
  0xfc, 0xff, 0xff, 0xff, 0x04, 0x00, 0x04, 0x00, 0x04, 0x00, 0x00, 0x00
};
unsigned int models_model_tflite_len = 2532;
